3ea643f3
3efd2b59
3e85a61d
3e55591b
3e3b0ad4
3df8be8c
3e6883ad
3ec672e8
3eb29605
3e83d5e8
3dc4db1c
3dacb717
3dbdf447
3e8b90c0
3e79e5af
3ed0cf8d
3ea26ab2
3ea07a3c
3e846415
3ef8708e
3ed43901
3dd3709b
3cd93a08
3eba9351
3e1d2e01
3e8cb4d6
3e5db5d9
3ea99bdb
3ef5e044
3ea31697
3ee10804
3eabe77a
3c05bbb8
3de66014
3e72eb96
3eb75083
3ebd39c7
3e911792
3e162ff7
3e63c3b2
3ed18040
3ec5425a
3d82f773
3eced09b
3ee8fb9a
3ea3a307
3decd7e5
3ba2fecb
3eee796b
3e862fc7
3eba4d3b
3cc35a5f
3ea3af73
3e48f72f
3eb7f713
3c8a064c
3e8018c1
3ee14d17
3eaf4c6a
3e175a49
3eb76abd
3ec87592
3e94d423
3cf7c36b
3e529bda
3cfb9642
3e98e7cb
3ed29f14
3e5277f4
3e714107
3e099e16
3ed0955b
3da3bb1e
3e827612
3e9a78c1
3e6b5f59
3e91e7e5
3e98aa91
3efb2d31
3e1eec9d
3e2028f9
3e9758e0
3ebf8abb
3e8cd4b6
3e248c9e
3efb0002
3e7a9f41
3ef630fd
3eb0b08a
3e76a994
3e26b80f
3efe5980
3dca3236
3ef6a715
3eac38bc
3e466580
3ed7641c
3e86cc6b
3ed3c423
3e591705
3eae198a
3ec15503
3e779063
3e274583
3ef30e91
3e5cb4a0
3e8c18a5
3eecb704
3dcdfd2d
3d1522fa
3e6dae6f
3e82c786
3ea401be
3eaf7f7e
3c1f7c67
3e83adfc
3e00d4ab
3b4e42d0
3da3496d
3ea2d240
3ed97465
3ccec911
3eea1a92
3e0433ec
3e2caad3
3e062b9f
3c9f0b74
3eb6e920
3dc36a1a
3d6fc7ce
3e3b1519
3e954417
3dddfd2a
3ec99bcb
3e4a8c30
3e81da7f
3ec8107b
3e952302
3e994164
3d3a1194
3e92b485
3ea8fa87
3ea92166
3ee9c98c
3eaa7b03
3e27237e
3d531be3
3ee12771
3e233bc9
3dae6a6b
3eb1e99d
3ed150a3
3e80808e
3dc99fe6
3ef629a7
3e6bb44f
3b5e3bf6
3d780665
3ec6c82a
3e4f430f
3e48a67c
3eb1f0c6
3d7ae787
3d844f7b
3e9c2487
3e13ff58
3ea55a25
3e6a9f3c
3e02d387
3e95f233
3e50824c
3efd2290
3e5f31b4
3c95c778
3eab798c
3e8097dd
3d4d2ef1
3e60e443
3eee5a1b
3ec79eaa
3e49fd4f
3e9279b1
3e7f3e2d
3e8253b5
3e875139
3df03721
3dbb3bdc
3eb8c357
3b8fef14
3cdb6aae
3e92a42f
3de51c5c
3ed22f1a
3edb289c
3ee8aad6
3e818e04
3c1576d7
3e1c3e46
3e3343a2
3e906640
3eb98da3
3d65b25a
3ec2f6d1
3e13e1f9
3ec3d669
3e99cfbd
3c45cc14
3edff58f
3db4c049
3d586f61
3ec89020
3e585de6
3edc3df4
3e16e80c
3ecc010b
3ef024e0
3efb0258
3e45684d
3e8cc2ac
3ee91566
3e13d88f
3e0f8955
3ef6cb19
3dd4b52a
3d41ea61
3ea768a8
3e42e619
3db44d32
3d74bcf0
3db0fba1
3ea33065
3eac9ab9
3e4188f0
3ef6ad4a
3ce2dfc8
3ed5afe5
3e478eff
3eb2978c
3e641d26
3ee9f55b
3ebab1ed
3e712b7e
3bc15484
3ea25ab4
3ee87784
3e1f6112
3e3b3642
3d2a6875
3ee50519
3e83a224
3e6e559d
3e06c2b7
3e992457
3ee44f1b
3d8c28ec
3e268fef
3ba0dc6c
3ed32403
3dd745a8
3e4d2444
3e75a363
3e32c358
3eb7a456
3ef29652
3e1b80d2
3ebcf989
3da2a4a8
3e1e218f
3d89ba0d
3e446020
3e0d8314
3e33e778
3e02584d
3e1b736e
3e8b15c1
3d80bb6e
3ea6c323
3e0b2dab
3db7989d
3e4398e5
3e285302
3e84c12f
3e92fd77
3ed87d51
3e1c4635
3e89f817
3ed76c41
3d912b44
3eb45502
3e6894ed
3e9c59bc
3ea97c03
3db369a5
3eb1719c
3dd1711b
3e5d0fa1
3ef78dd1
3e4f8549
3ea0a005
3e77e451
3ebfb70e
3ed49339
3e76cdef
3c5789c7
3ee188df
3ed90208
3eef6da1
3da7c5ec
3edbb075
3d25d399
3ea43acf
3e2ca0f1
3e38e7d5
3ef62404
3e1ffcb9
3c62185b
3e0e2e4d
3eddc622
3eab07b1
3d203c98
3ee94fab
3e156742
3e8e46f4
3c6e9b6a
3ec9ac14
3b7ca1c2
3dcff2df
3e976348
3ece6b61
3c5e62f5
3efe3f61
3eaec78d
3ee2ffe6
3ea2bf38
3ee1af9d
3e9fd5f3
3eb8e7cd
3e15e014
3ee267f6
3d45a51e
3e7cdb25
3e1514b2
3e146b13
3e9bf5a2
3cabdded
3ec161c2
3eff6b0f
3e64b415
3eca3085
3ec4a2ee
3ecd1264
3e131857
3edb0324
3db4e4d7
3ef97dab
3eb649e4
3e846932
3d25236f
3eeb618f
3e6235c3
3ec272f5
3ec76639
3c15f074
3e2cdb7d
3e8a6bb3
3e813aaa
3ce2ca81
3eaa4b04
3ebc54f5
3e785c7c
3ddb526a
3abae48c
3e88d357
3d5864a3
3eef11f7
3dbd07c5
3e37f757
3eef861f
3db52572
3e319161
3eb754ab
3e5a71bf
3d7d2830
3d9e4261
3bed07fc
3ec38896
3e00727c
3eddb63e
3eb577ee
3eb6cbc1
3ec3475e
3e69738e
3e06bd42
3e824737
3ebad768
3db034d9
3ecc66c1
3da4d52e
3e8d5037
3e962f5a
